/* Generated by Edge Impulse
 *
 * Permission is hereby granted, free of charge, to any person obtaining a copy
 * of this software and associated documentation files (the "Software"), to deal
 * in the Software without restriction, including without limitation the rights
 * to use, copy, modify, merge, publish, distribute, sublicense, and/or sell
 * copies of the Software, and to permit persons to whom the Software is
 * furnished to do so, subject to the following conditions:
 *
 * The above copyright notice and this permission notice shall be included in
 * all copies or substantial portions of the Software.
 *
 * THE SOFTWARE IS PROVIDED "AS IS", WITHOUT WARRANTY OF ANY KIND, EXPRESS OR
 * IMPLIED, INCLUDING BUT NOT LIMITED TO THE WARRANTIES OF MERCHANTABILITY,
 * FITNESS FOR A PARTICULAR PURPOSE AND NONINFRINGEMENT. IN NO EVENT SHALL THE
 * AUTHORS OR COPYRIGHT HOLDERS BE LIABLE FOR ANY CLAIM, DAMAGES OR OTHER
 * LIABILITY, WHETHER IN AN ACTION OF CONTRACT, TORT OR OTHERWISE, ARISING FROM,
 * OUT OF OR IN CONNECTION WITH THE SOFTWARE OR THE USE OR OTHER DEALINGS IN THE
 * SOFTWARE.
 */

#ifndef _EI_CLASSIFIER_TFLITE_TRAINED_H_
#define _EI_CLASSIFIER_TFLITE_TRAINED_H_

#define EI_CLASSIFIER_TFLITE_ARENA_SIZE     5824

#if defined __GNUC__
#define ALIGN(X) __attribute__((aligned(X)))
#elif defined _MSC_VER
#define ALIGN(X) __declspec(align(X))
#elif defined __TASKING__
#define ALIGN(X) __align(X)
#else
#define ALIGN(X)
#endif
ALIGN(16) const unsigned char trained_tflite[] = {
  0x20, 0x00, 0x00, 0x00, 0x54, 0x46, 0x4c, 0x33, 0x00, 0x00, 0x00, 0x00,
  0x14, 0x00, 0x20, 0x00, 0x1c, 0x00, 0x18, 0x00, 0x14, 0x00, 0x10, 0x00,
  0x0c, 0x00, 0x00, 0x00, 0x08, 0x00, 0x04, 0x00, 0x14, 0x00, 0x00, 0x00,
  0x1c, 0x00, 0x00, 0x00, 0x8c, 0x00, 0x00, 0x00, 0xbc, 0x00, 0x00, 0x00,
  0xa4, 0x08, 0x00, 0x00, 0xb4, 0x08, 0x00, 0x00, 0xcc, 0x17, 0x00, 0x00,
  0x03, 0x00, 0x00, 0x00, 0x01, 0x00, 0x00, 0x00, 0x10, 0x00, 0x00, 0x00,
  0x00, 0x00, 0x0a, 0x00, 0x10, 0x00, 0x0c, 0x00, 0x08, 0x00, 0x04, 0x00,
  0x0a, 0x00, 0x00, 0x00, 0x0c, 0x00, 0x00, 0x00, 0x1c, 0x00, 0x00, 0x00,
  0x3c, 0x00, 0x00, 0x00, 0x0f, 0x00, 0x00, 0x00, 0x73, 0x65, 0x72, 0x76,
  0x69, 0x6e, 0x67, 0x5f, 0x64, 0x65, 0x66, 0x61, 0x75, 0x6c, 0x74, 0x00,
  0x01, 0x00, 0x00, 0x00, 0x04, 0x00, 0x00, 0x00, 0xc4, 0xff, 0xff, 0xff,
  0x16, 0x00, 0x00, 0x00, 0x04, 0x00, 0x00, 0x00, 0x08, 0x00, 0x00, 0x00,
  0x6f, 0x75, 0x74, 0x70, 0x75, 0x74, 0x5f, 0x30, 0x00, 0x00, 0x00, 0x00,
  0x01, 0x00, 0x00, 0x00, 0x04, 0x00, 0x00, 0x00, 0x36, 0xf7, 0xff, 0xff,
  0x04, 0x00, 0x00, 0x00, 0x01, 0x00, 0x00, 0x00, 0x78, 0x00, 0x00, 0x00,
  0x01, 0x00, 0x00, 0x00, 0x0c, 0x00, 0x00, 0x00, 0x08, 0x00, 0x0c, 0x00,
  0x08, 0x00, 0x04, 0x00, 0x08, 0x00, 0x00, 0x00, 0x18, 0x00, 0x00, 0x00,
  0x04, 0x00, 0x00, 0x00, 0x13, 0x00, 0x00, 0x00, 0x6d, 0x69, 0x6e, 0x5f,
  0x72, 0x75, 0x6e, 0x74, 0x69, 0x6d, 0x65, 0x5f, 0x76, 0x65, 0x72, 0x73,
  0x69, 0x6f, 0x6e, 0x00, 0x19, 0x00, 0x00, 0x00, 0xe4, 0x07, 0x00, 0x00,
  0xdc, 0x07, 0x00, 0x00, 0xbc, 0x07, 0x00, 0x00, 0x9c, 0x07, 0x00, 0x00,
  0x7c, 0x07, 0x00, 0x00, 0x5c, 0x07, 0x00, 0x00, 0x44, 0x07, 0x00, 0x00,
  0xfc, 0x05, 0x00, 0x00, 0xcc, 0x05, 0x00, 0x00, 0x3c, 0x04, 0x00, 0x00,
  0xec, 0x03, 0x00, 0x00, 0x9c, 0x00, 0x00, 0x00, 0x7c, 0x00, 0x00, 0x00,
  0x74, 0x00, 0x00, 0x00, 0x6c, 0x00, 0x00, 0x00, 0x64, 0x00, 0x00, 0x00,
  0x5c, 0x00, 0x00, 0x00, 0x54, 0x00, 0x00, 0x00, 0x4c, 0x00, 0x00, 0x00,
  0x44, 0x00, 0x00, 0x00, 0x3c, 0x00, 0x00, 0x00, 0x34, 0x00, 0x00, 0x00,
  0x2c, 0x00, 0x00, 0x00, 0x24, 0x00, 0x00, 0x00, 0x04, 0x00, 0x00, 0x00,
  0xe2, 0xf7, 0xff, 0xff, 0x04, 0x00, 0x00, 0x00, 0x10, 0x00, 0x00, 0x00,
  0x31, 0x2e, 0x31, 0x34, 0x2e, 0x30, 0x00, 0x00, 0x00, 0x00, 0x00, 0x00,
  0x00, 0x00, 0x00, 0x00, 0x18, 0xea, 0xff, 0xff, 0x1c, 0xea, 0xff, 0xff,
  0x20, 0xea, 0xff, 0xff, 0x24, 0xea, 0xff, 0xff, 0x28, 0xea, 0xff, 0xff,
  0x2c, 0xea, 0xff, 0xff, 0x30, 0xea, 0xff, 0xff, 0x34, 0xea, 0xff, 0xff,
  0x38, 0xea, 0xff, 0xff, 0x3c, 0xea, 0xff, 0xff, 0x40, 0xea, 0xff, 0xff,
  0x2a, 0xf8, 0xff, 0xff, 0x04, 0x00, 0x00, 0x00, 0x10, 0x00, 0x00, 0x00,
  0x1b, 0xf1, 0xff, 0xff, 0x8b, 0x33, 0x00, 0x00, 0x4d, 0xf8, 0xff, 0xff,
  0x83, 0xe4, 0xff, 0xff, 0x46, 0xf8, 0xff, 0xff, 0x04, 0x00, 0x00, 0x00,
  0x40, 0x03, 0x00, 0x00, 0x0f, 0xd8, 0xd6, 0x02, 0x2a, 0xea, 0x17, 0x4b,
  0xfd, 0xfd, 0xba, 0xf0, 0x1f, 0xe4, 0x21, 0x16, 0x14, 0xfb, 0x14, 0xf9,
  0x2d, 0xe8, 0xd9, 0x11, 0x15, 0xff, 0xef, 0xf9, 0x29, 0xf6, 0xfa, 0x0e,
  0x05, 0x11, 0x29, 0x09, 0x28, 0xde, 0x11, 0x1b, 0x0a, 0xf6, 0xe4, 0xe5,
  0x1a, 0xd5, 0x0e, 0xfd, 0x14, 0x27, 0x2d, 0xba, 0x3c, 0xdd, 0xdd, 0x1e,
  0x02, 0xd6, 0xec, 0xfd, 0x2c, 0xf6, 0x13, 0x1a, 0x16, 0x23, 0x28, 0xbf,
  0x3f, 0xe3, 0x06, 0x24, 0x07, 0xf7, 0x04, 0xf7, 0x27, 0xdc, 0xf5, 0x04,
  0x0a, 0x24, 0x29, 0xc4, 0x20, 0xdf, 0xf8, 0x1e, 0x0c, 0xfa, 0xe4, 0x08,
  0x1d, 0xef, 0xe2, 0x0a, 0x0a, 0x1b, 0x30, 0xd8, 0x3e, 0xd1, 0x10, 0x1f,
  0x0f, 0xe5, 0xe8, 0xf7, 0x22, 0xe2, 0xe8, 0x10, 0x11, 0x25, 0x34, 0xbb,
  0x3a, 0xcf, 0xeb, 0x2b, 0xf2, 0xf6, 0xfc, 0xfe, 0x29, 0xd9, 0xfd, 0x0d,
  0x12, 0x25, 0x2b, 0xb9, 0x34, 0xbb, 0xee, 0x22, 0xff, 0xf4, 0xe4, 0x07,
  0x0c, 0xd5, 0xeb, 0x03, 0x09, 0x25, 0x19, 0xcc, 0x3f, 0xdd, 0x09, 0x28,
  0x00, 0xf4, 0x0e, 0xfe, 0x1a, 0xe8, 0x07, 0x0a, 0x01, 0x1d, 0x28, 0xb5,
  0x1f, 0xd2, 0xe3, 0x21, 0xf9, 0xf6, 0xfe, 0x07, 0xfc, 0x0e, 0x07, 0x01,
  0x01, 0x13, 0x1b, 0xc1, 0x29, 0xcc, 0xd1, 0x29, 0x05, 0xf1, 0x09, 0xf8,
  0x0f, 0xe4, 0x06, 0x16, 0x0b, 0x1d, 0x1e, 0xd6, 0x3d, 0xdd, 0xf8, 0x1a,
  0x01, 0xd2, 0xf6, 0xe2, 0x0b, 0xfa, 0x17, 0x09, 0xab, 0x17, 0x32, 0x22,
  0x03, 0x1d, 0x2d, 0x81, 0xbb, 0x1b, 0x1e, 0x13, 0xd9, 0x0b, 0xc7, 0xd6,
  0xe5, 0x0b, 0xdf, 0x20, 0xf5, 0x23, 0xe6, 0xcc, 0xb3, 0x1c, 0xf2, 0x24,
  0xcf, 0x08, 0xd8, 0xd9, 0x06, 0xb3, 0xc4, 0x15, 0xe7, 0x08, 0xeb, 0xaf,
  0x87, 0x0d, 0x1f, 0x1e, 0xda, 0x14, 0xe3, 0xee, 0xe5, 0xe2, 0xbd, 0x2b,
  0xdd, 0xf5, 0xdd, 0xc2, 0xc3, 0x00, 0xda, 0x20, 0xe7, 0x19, 0xf8, 0xea,
  0xd6, 0xcc, 0xb1, 0xf8, 0xea, 0xec, 0xe2, 0xbd, 0xbf, 0xef, 0x14, 0x11,
  0xe2, 0x27, 0xfd, 0xfa, 0xe7, 0xe5, 0xc0, 0x08, 0xb6, 0xfe, 0xb3, 0xb6,
  0xb2, 0xd5, 0xef, 0x26, 0xc1, 0x22, 0x06, 0xee, 0xc7, 0xb0, 0xa0, 0xf2,
  0xd5, 0x04, 0xd8, 0xc0, 0x85, 0xf2, 0xe8, 0x1e, 0xce, 0x23, 0x0c, 0xeb,
  0xc0, 0xea, 0xd7, 0x04, 0xe7, 0xf0, 0xd4, 0xdc, 0xbb, 0xf8, 0xe8, 0x15,
  0xe6, 0x30, 0xf4, 0xe0, 0xe8, 0xda, 0xbb, 0xf8, 0xe7, 0xea, 0xbd, 0xd5,
  0xa5, 0xdf, 0xf0, 0x1a, 0xd1, 0x24, 0xef, 0xfd, 0x07, 0xcc, 0xc7, 0xf3,
  0xe9, 0x14, 0xc6, 0xbe, 0xa3, 0xda, 0xdd, 0x2d, 0xd0, 0x2b, 0xec, 0x01,
  0x08, 0xd9, 0xf1, 0xea, 0x14, 0xee, 0xfd, 0xe2, 0xb9, 0xe6, 0xe7, 0x15,
  0xdc, 0x24, 0xd0, 0xcb, 0x03, 0xe9, 0xf5, 0xeb, 0xd6, 0x1b, 0x16, 0xc1,
  0xcc, 0xf6, 0xf8, 0x1e, 0xe5, 0x2b, 0xd7, 0x06, 0xfe, 0x19, 0x2d, 0x1e,
  0xee, 0x1c, 0x1a, 0xf0, 0xcd, 0xc2, 0x05, 0x11, 0xff, 0x0b, 0xe6, 0x00,
  0xee, 0x08, 0xf7, 0x00, 0xfb, 0xfb, 0xf8, 0x91, 0x0b, 0x0f, 0x07, 0xf3,
  0xe4, 0x1e, 0x1e, 0x14, 0xe7, 0x00, 0x0c, 0xfd, 0xe8, 0x0e, 0xf7, 0xfc,
  0x0e, 0x0e, 0x1a, 0xf9, 0xed, 0x08, 0x13, 0x13, 0xd4, 0x1b, 0x01, 0x03,
  0xe8, 0x13, 0xd5, 0xed, 0x07, 0x28, 0x10, 0x06, 0xd0, 0x08, 0x10, 0x0a,
  0xe2, 0x1f, 0x07, 0x06, 0xf3, 0x20, 0xfc, 0xe0, 0x0f, 0x30, 0x12, 0x03,
  0xe1, 0x0e, 0xfc, 0xf6, 0xd8, 0x27, 0x16, 0x01, 0xef, 0x29, 0xfb, 0xe1,
  0xfa, 0x2f, 0x13, 0xfd, 0xee, 0x23, 0x10, 0xf6, 0xee, 0x24, 0x1b, 0x07,
  0xe8, 0x1b, 0xfc, 0xf9, 0x09, 0x37, 0x1b, 0xf9, 0xdf, 0x0e, 0xff, 0xee,
  0xe9, 0x1a, 0x19, 0xfd, 0xeb, 0x1a, 0xfb, 0xf5, 0x15, 0x31, 0x23, 0xff,
  0xd4, 0x01, 0xff, 0xf2, 0xfc, 0x25, 0x1d, 0xee, 0xfd, 0x1f, 0xf3, 0xf0,
  0x10, 0x3e, 0x21, 0xef, 0xe0, 0x0b, 0xfc, 0xf6, 0xf5, 0x25, 0x13, 0x02,
  0xfa, 0x0f, 0xfb, 0xe1, 0x14, 0x1f, 0x1a, 0xf8, 0xf9, 0x0a, 0xfe, 0xfb,
  0xe2, 0x18, 0x06, 0xf1, 0xf5, 0x18, 0xee, 0xff, 0x1d, 0x28, 0x1f, 0xf8,
  0xfe, 0x0a, 0x14, 0xea, 0xf6, 0x16, 0x1a, 0x01, 0xeb, 0xfe, 0xf0, 0xcc,
  0x19, 0x36, 0x1d, 0xf4, 0xfc, 0x1b, 0xfd, 0x08, 0x01, 0x10, 0xf6, 0x04,
  0x04, 0x11, 0xc8, 0xf3, 0x02, 0x2c, 0x14, 0xf7, 0xed, 0x01, 0x09, 0x11,
  0x04, 0xfe, 0x21, 0xe1, 0xf9, 0xed, 0xe8, 0x03, 0x26, 0x47, 0x0e, 0x03,
  0xfe, 0xee, 0x09, 0x05, 0x1d, 0xf9, 0xfa, 0xfc, 0xc7, 0xf4, 0xb0, 0x42,
  0x1d, 0xf2, 0x1b, 0xf9, 0xfd, 0xf4, 0xfd, 0x12, 0x1d, 0xe9, 0xcf, 0xe9,
  0xe8, 0x07, 0x2f, 0x2f, 0x21, 0xf9, 0xf3, 0xf6, 0x00, 0xf5, 0xfb, 0x06,
  0x1e, 0xde, 0xd1, 0x01, 0xd3, 0xf0, 0x33, 0x17, 0x1f, 0xd4, 0xb8, 0xff,
  0x08, 0xdf, 0x05, 0x11, 0x2d, 0xec, 0xcf, 0x1b, 0xf2, 0x08, 0x29, 0x29,
  0x13, 0xe7, 0xeb, 0xe7, 0x0f, 0xf1, 0xed, 0x13, 0x1b, 0xd1, 0xb4, 0x38,
  0xf6, 0x1b, 0x31, 0x1b, 0x1d, 0x0a, 0xc0, 0xeb, 0x1a, 0xe1, 0x05, 0x07,
  0x25, 0xd6, 0xc7, 0x34, 0xe8, 0x08, 0x30, 0x09, 0x37, 0xfb, 0xe6, 0xf1,
  0x25, 0xe8, 0x20, 0x1c, 0x2c, 0xac, 0xb3, 0x22, 0xf4, 0x1c, 0x28, 0x1d,
  0x1b, 0xf7, 0xe6, 0xf9, 0x1a, 0xdb, 0x14, 0x0b, 0x17, 0xb4, 0xc4, 0x31,
  0xe8, 0x0b, 0x2d, 0x1c, 0x22, 0xea, 0xd4, 0xea, 0x24, 0xcb, 0x1e, 0x1d,
  0x2d, 0xd9, 0xdc, 0x3c, 0xd9, 0x12, 0x39, 0x2b, 0x25, 0xe6, 0xe1, 0x06,
  0xfe, 0xe6, 0x17, 0x12, 0x10, 0xda, 0xb8, 0x3d, 0xcc, 0x20, 0x25, 0x1b,
  0x0a, 0xe4, 0xaf, 0xf9, 0xf4, 0xf2, 0x22, 0xf7, 0x1c, 0xc0, 0xbf, 0x38,
  0xc1, 0x1f, 0x44, 0x0f, 0x16, 0xef, 0xee, 0x00, 0x01, 0xea, 0x06, 0x0d,
  0x33, 0xdb, 0xe7, 0x32, 0xeb, 0x11, 0x38, 0x18, 0x24, 0xd0, 0xc8, 0xf7,
  0x09, 0xdb, 0xfa, 0x08, 0xf0, 0xbd, 0x85, 0x16, 0xeb, 0x25, 0x29, 0x07,
  0x39, 0x2b, 0xd8, 0xf8, 0xec, 0xeb, 0x12, 0xfd, 0x92, 0xfb, 0xff, 0xff,
  0x04, 0x00, 0x00, 0x00, 0x40, 0x00, 0x00, 0x00, 0x0c, 0xf2, 0xff, 0xff,
  0xbc, 0xfe, 0xff, 0xff, 0x7d, 0x02, 0x00, 0x00, 0x28, 0x07, 0x00, 0x00,
  0xdb, 0xfc, 0xff, 0xff, 0xd8, 0xff, 0xff, 0xff, 0x19, 0x07, 0x00, 0x00,
  0x7b, 0xff, 0xff, 0xff, 0xa3, 0xe3, 0xff, 0xff, 0xab, 0xfe, 0xff, 0xff,
  0xfb, 0xeb, 0xff, 0xff, 0x3f, 0x00, 0x00, 0x00, 0x08, 0xef, 0xff, 0xff,
  0xda, 0xfa, 0xff, 0xff, 0x08, 0x00, 0x00, 0x00, 0xa9, 0x01, 0x00, 0x00,
  0xde, 0xfb, 0xff, 0xff, 0x04, 0x00, 0x00, 0x00, 0x80, 0x01, 0x00, 0x00,
  0x0a, 0x91, 0x31, 0x0f, 0xb2, 0xfc, 0x10, 0xfe, 0xea, 0xe1, 0xe7, 0xf0,
  0x81, 0xf7, 0x0e, 0x03, 0xbd, 0xb2, 0xf3, 0xd1, 0xcf, 0xe1, 0xd9, 0x2c,
  0xa1, 0x2c, 0xd9, 0xf0, 0xf8, 0xfe, 0x09, 0xed, 0x81, 0xe0, 0xf0, 0xb2,
  0xf9, 0xeb, 0x19, 0x01, 0xee, 0x24, 0x17, 0xde, 0x00, 0xd7, 0x1d, 0xf8,
  0x81, 0x07, 0xf6, 0xb6, 0x03, 0xe1, 0xee, 0xf2, 0xc1, 0x0d, 0xf6, 0xec,
  0xea, 0xe6, 0xe3, 0xed, 0xdd, 0x02, 0xf2, 0xe6, 0xee, 0xe3, 0x24, 0x18,
  0x8d, 0x07, 0xec, 0xba, 0x12, 0xfe, 0xf6, 0x9d, 0xc1, 0xe6, 0xf3, 0xf8,
  0xf2, 0xde, 0xee, 0x9b, 0xd0, 0xc0, 0xd9, 0xd0, 0xd5, 0x48, 0xb2, 0x81,
  0xd4, 0xc9, 0x23, 0xc7, 0x06, 0xd5, 0xd1, 0xeb, 0x81, 0xec, 0x00, 0xd6,
  0x0a, 0x03, 0xa8, 0xe8, 0xaa, 0x44, 0xe3, 0xea, 0xf5, 0xeb, 0xf6, 0xe0,
  0x9f, 0x10, 0xe6, 0xf8, 0x14, 0x35, 0xda, 0x15, 0x81, 0xd2, 0xf0, 0x8c,
  0x2a, 0xe6, 0xc3, 0x01, 0xe9, 0xcd, 0x15, 0xe4, 0xe7, 0x1b, 0xd1, 0x39,
  0xa0, 0x00, 0xed, 0xe5, 0xc8, 0xf7, 0xf5, 0x3c, 0xdf, 0xf4, 0xb9, 0xf9,
  0xfe, 0x14, 0x03, 0xce, 0xe8, 0xdb, 0x81, 0xf1, 0xf8, 0xf8, 0xf2, 0xd2,
  0xf4, 0xf9, 0x1a, 0xfd, 0xff, 0xfa, 0xfa, 0x06, 0xbc, 0xf9, 0xf0, 0xea,
  0x06, 0xfa, 0xf2, 0x03, 0x81, 0x05, 0xe6, 0xd9, 0x04, 0xe4, 0xf7, 0x00,
  0xd5, 0x07, 0x2b, 0xe8, 0xfd, 0x38, 0x39, 0x68, 0x81, 0x05, 0x06, 0xd2,
  0x1a, 0xcb, 0x11, 0x13, 0xa9, 0x1b, 0x18, 0x90, 0x41, 0xcc, 0x0f, 0x49,
  0x81, 0x06, 0xf8, 0x9e, 0x11, 0x08, 0xef, 0x00, 0xdd, 0xf4, 0xf5, 0xba,
  0x04, 0x06, 0xf1, 0x06, 0xfc, 0xe4, 0x1e, 0xf9, 0x0b, 0xf4, 0xfc, 0x17,
  0xdc, 0x5a, 0x11, 0xe9, 0xf2, 0xc8, 0x35, 0xe5, 0xfb, 0xfa, 0x13, 0xee,
  0x38, 0xd8, 0xc4, 0x97, 0x12, 0x15, 0x23, 0x02, 0x4c, 0xcc, 0x9d, 0x81,
  0xea, 0xe2, 0xfd, 0x53, 0xdc, 0xb8, 0xf9, 0xc9, 0xd4, 0xe2, 0xe9, 0xb4,
  0x0e, 0xb7, 0xf3, 0xde, 0xf0, 0xd1, 0xd6, 0x2a, 0xf7, 0xb9, 0x05, 0x81,
  0x05, 0x81, 0xf1, 0x15, 0xdd, 0x0f, 0x0a, 0xc7, 0xed, 0xd4, 0x5f, 0xf1,
  0x14, 0x02, 0xe5, 0xfa, 0x91, 0x16, 0xe4, 0xdf, 0x1b, 0xd3, 0xf7, 0xfb,
  0x08, 0xfd, 0xc4, 0x64, 0xf6, 0xfa, 0x11, 0xd5, 0xc3, 0x09, 0x81, 0xef,
  0x09, 0xfe, 0x03, 0xdc, 0xc4, 0x0d, 0x94, 0x8b, 0x07, 0xfe, 0xfb, 0xe2,
  0xfd, 0xca, 0xa2, 0xfa, 0xbf, 0x13, 0xcf, 0x81, 0xfb, 0xfe, 0xbf, 0xf1,
  0xb3, 0x04, 0xeb, 0x8d, 0xf6, 0x8d, 0xdb, 0xed, 0xbb, 0x1f, 0xfb, 0xca,
  0x09, 0x85, 0x9e, 0x00, 0xc9, 0x03, 0x87, 0xc4, 0xfb, 0xa3, 0xb0, 0x03,
  0xa8, 0x05, 0xaa, 0x81, 0x0c, 0x81, 0xb4, 0x02, 0x83, 0xfb, 0xbe, 0x87,
  0x6a, 0xfd, 0xff, 0xff, 0x04, 0x00, 0x00, 0x00, 0x20, 0x00, 0x00, 0x00,
  0x84, 0x07, 0x00, 0x00, 0x52, 0xd0, 0xff, 0xff, 0x4d, 0xe7, 0xff, 0xff,
  0xa0, 0x01, 0x00, 0x00, 0x00, 0xde, 0xff, 0xff, 0x0d, 0xfa, 0xff, 0xff,
  0xf1, 0xeb, 0xff, 0xff, 0xe3, 0xd9, 0xff, 0xff, 0x96, 0xfd, 0xff, 0xff,
  0x04, 0x00, 0x00, 0x00, 0x38, 0x01, 0x00, 0x00, 0xa4, 0xe5, 0x14, 0x18,
  0x00, 0xff, 0xe5, 0xf5, 0xf1, 0xef, 0x0d, 0x16, 0x07, 0x8e, 0xf9, 0xe8,
  0xfe, 0xfd, 0xff, 0xfb, 0x09, 0x03, 0xfe, 0x00, 0xf6, 0x01, 0x81, 0xf5,
  0x0b, 0x0a, 0x21, 0x06, 0xf6, 0x03, 0x05, 0xf6, 0x00, 0x05, 0x08, 0x7f,
  0x18, 0xa7, 0xbc, 0x39, 0xca, 0xd4, 0x44, 0xef, 0xec, 0xcb, 0x14, 0x24,
  0x10, 0x14, 0xab, 0xdf, 0x1a, 0xde, 0xd5, 0x2a, 0x20, 0xd4, 0xd4, 0x3f,
  0x04, 0x79, 0x4d, 0xb9, 0xa4, 0x36, 0xf6, 0xc5, 0x28, 0x1f, 0x01, 0xb1,
  0x00, 0x10, 0xd5, 0x38, 0x6b, 0x24, 0x10, 0x18, 0xc4, 0x02, 0xf0, 0xe8,
  0xf1, 0xf1, 0xe2, 0xf1, 0x5f, 0x6e, 0x2f, 0x0e, 0x1d, 0xc1, 0x0d, 0xf9,
  0xe5, 0xfa, 0x01, 0xec, 0x02, 0x35, 0x7f, 0x3b, 0xea, 0x0d, 0xda, 0x09,
  0xe4, 0xec, 0x1e, 0x06, 0x08, 0x81, 0x0e, 0x1c, 0x0f, 0x0e, 0xff, 0x03,
  0x02, 0x06, 0x02, 0x09, 0x00, 0xf9, 0xe3, 0xf9, 0xda, 0xe8, 0xf9, 0xf8,
  0xf5, 0xf3, 0xfc, 0xfb, 0xfd, 0x07, 0x06, 0x30, 0xfc, 0x09, 0x07, 0x14,
  0x03, 0x01, 0x05, 0x00, 0xf9, 0x01, 0x02, 0xf6, 0xff, 0x77, 0x81, 0x05,
  0x79, 0xd1, 0xfd, 0xfc, 0x0c, 0xd1, 0x15, 0x0c, 0x06, 0x43, 0xf1, 0xbd,
  0x30, 0xc4, 0xb8, 0x2b, 0x27, 0xeb, 0xe0, 0x3e, 0xf5, 0xee, 0xf9, 0xf4,
  0xe8, 0x6a, 0xcc, 0xf4, 0x4e, 0xcc, 0xc4, 0x1a, 0x06, 0xeb, 0x00, 0xeb,
  0xce, 0x1a, 0xed, 0x2e, 0x0b, 0xf8, 0xed, 0x24, 0xee, 0x19, 0x05, 0x02,
  0xe8, 0xe9, 0x27, 0xf6, 0x34, 0xf8, 0xf7, 0xed, 0x0b, 0xf7, 0x23, 0xf4,
  0xf0, 0xec, 0x81, 0x47, 0xe1, 0x16, 0xda, 0x04, 0xd0, 0x48, 0xf7, 0x1c,
  0x01, 0x0b, 0xc4, 0x40, 0x01, 0xb7, 0x0e, 0x0e, 0x02, 0xf2, 0x17, 0xe1,
  0x17, 0x02, 0xe9, 0xe2, 0x62, 0xf0, 0xd7, 0x0d, 0x17, 0xe5, 0xbb, 0x07,
  0x0d, 0x29, 0xf1, 0xf5, 0x07, 0x7f, 0x12, 0x93, 0x26, 0x1c, 0xc7, 0xfe,
  0xe7, 0x11, 0x12, 0x0f, 0x16, 0x34, 0xee, 0x69, 0xd0, 0xcc, 0xe4, 0xd6,
  0xf3, 0xf6, 0x17, 0x09, 0x25, 0xfd, 0x1b, 0xf8, 0x23, 0xea, 0xb6, 0xf8,
  0xea, 0xeb, 0x02, 0xf3, 0xf7, 0x0f, 0x09, 0x0c, 0x27, 0xe5, 0x12, 0x81,
  0x19, 0xe6, 0xf7, 0x19, 0x06, 0xff, 0xf5, 0x18, 0xda, 0xfe, 0xff, 0xff,
  0x04, 0x00, 0x00, 0x00, 0x08, 0x00, 0x00, 0x00, 0xff, 0xff, 0xff, 0xff,
  0xd0, 0x00, 0x00, 0x00, 0xee, 0xfe, 0xff, 0xff, 0x04, 0x00, 0x00, 0x00,
  0x10, 0x00, 0x00, 0x00, 0x01, 0x00, 0x00, 0x00, 0x19, 0x00, 0x00, 0x00,
  0x01, 0x00, 0x00, 0x00, 0x10, 0x00, 0x00, 0x00, 0x0a, 0xff, 0xff, 0xff,
  0x04, 0x00, 0x00, 0x00, 0x10, 0x00, 0x00, 0x00, 0x01, 0x00, 0x00, 0x00,
  0x01, 0x00, 0x00, 0x00, 0x19, 0x00, 0x00, 0x00, 0x08, 0x00, 0x00, 0x00,
  0x26, 0xff, 0xff, 0xff, 0x04, 0x00, 0x00, 0x00, 0x10, 0x00, 0x00, 0x00,
  0x01, 0x00, 0x00, 0x00, 0x32, 0x00, 0x00, 0x00, 0x01, 0x00, 0x00, 0x00,
  0x08, 0x00, 0x00, 0x00, 0x42, 0xff, 0xff, 0xff, 0x04, 0x00, 0x00, 0x00,
  0x10, 0x00, 0x00, 0x00, 0x01, 0x00, 0x00, 0x00, 0x01, 0x00, 0x00, 0x00,
  0x32, 0x00, 0x00, 0x00, 0x0d, 0x00, 0x00, 0x00, 0x78, 0xf1, 0xff, 0xff,
  0x7c, 0xf1, 0xff, 0xff, 0x0f, 0x00, 0x00, 0x00, 0x4d, 0x4c, 0x49, 0x52,
  0x20, 0x43, 0x6f, 0x6e, 0x76, 0x65, 0x72, 0x74, 0x65, 0x64, 0x2e, 0x00,
  0x01, 0x00, 0x00, 0x00, 0x14, 0x00, 0x00, 0x00, 0x00, 0x00, 0x0e, 0x00,
  0x18, 0x00, 0x14, 0x00, 0x10, 0x00, 0x0c, 0x00, 0x08, 0x00, 0x04, 0x00,
  0x0e, 0x00, 0x00, 0x00, 0x14, 0x00, 0x00, 0x00, 0x1c, 0x00, 0x00, 0x00,
  0x84, 0x02, 0x00, 0x00, 0x88, 0x02, 0x00, 0x00, 0x8c, 0x02, 0x00, 0x00,
  0x04, 0x00, 0x00, 0x00, 0x6d, 0x61, 0x69, 0x6e, 0x00, 0x00, 0x00, 0x00,
  0x0b, 0x00, 0x00, 0x00, 0x48, 0x02, 0x00, 0x00, 0xec, 0x01, 0x00, 0x00,
  0xb8, 0x01, 0x00, 0x00, 0x68, 0x01, 0x00, 0x00, 0x44, 0x01, 0x00, 0x00,
  0x00, 0x01, 0x00, 0x00, 0xdc, 0x00, 0x00, 0x00, 0x9c, 0x00, 0x00, 0x00,
  0x78, 0x00, 0x00, 0x00, 0x40, 0x00, 0x00, 0x00, 0x04, 0x00, 0x00, 0x00,
  0x4a, 0xfe, 0xff, 0xff, 0x1c, 0x00, 0x00, 0x00, 0x00, 0x00, 0x00, 0x09,
  0x1c, 0x00, 0x00, 0x00, 0x20, 0x00, 0x00, 0x00, 0x04, 0x00, 0x00, 0x00,
  0x00, 0x00, 0x06, 0x00, 0x08, 0x00, 0x04, 0x00, 0x06, 0x00, 0x00, 0x00,
  0x00, 0x00, 0x80, 0x3f, 0x01, 0x00, 0x00, 0x00, 0x16, 0x00, 0x00, 0x00,
  0x01, 0x00, 0x00, 0x00, 0x15, 0x00, 0x00, 0x00, 0x82, 0xfe, 0xff, 0xff,
  0x14, 0x00, 0x00, 0x00, 0x00, 0x00, 0x00, 0x08, 0x10, 0x00, 0x00, 0x00,
  0x14, 0x00, 0x00, 0x00, 0x03, 0x00, 0x00, 0x00, 0x50, 0xf2, 0xff, 0xff,
  0x01, 0x00, 0x00, 0x00, 0x15, 0x00, 0x00, 0x00, 0x03, 0x00, 0x00, 0x00,
  0x14, 0x00, 0x00, 0x00, 0x0a, 0x00, 0x00, 0x00, 0x0b, 0x00, 0x00, 0x00,
  0x5a, 0xfe, 0xff, 0xff, 0x08, 0x00, 0x00, 0x00, 0x0c, 0x00, 0x00, 0x00,
  0x01, 0x00, 0x00, 0x00, 0x14, 0x00, 0x00, 0x00, 0x02, 0x00, 0x00, 0x00,
  0x13, 0x00, 0x00, 0x00, 0x05, 0x00, 0x00, 0x00, 0xd6, 0xfe, 0xff, 0xff,
  0x14, 0x00, 0x00, 0x00, 0x00, 0x00, 0x00, 0x05, 0x20, 0x00, 0x00, 0x00,
  0x24, 0x00, 0x00, 0x00, 0x02, 0x00, 0x00, 0x00, 0x42, 0xff, 0xff, 0xff,
  0x02, 0x00, 0x00, 0x00, 0x01, 0x00, 0x00, 0x00, 0x02, 0x00, 0x00, 0x00,
  0x01, 0x00, 0x00, 0x00, 0x01, 0x00, 0x00, 0x00, 0x13, 0x00, 0x00, 0x00,
  0x01, 0x00, 0x00, 0x00, 0x12, 0x00, 0x00, 0x00, 0xb6, 0xfe, 0xff, 0xff,
  0x08, 0x00, 0x00, 0x00, 0x0c, 0x00, 0x00, 0x00, 0x01, 0x00, 0x00, 0x00,
  0x12, 0x00, 0x00, 0x00, 0x02, 0x00, 0x00, 0x00, 0x11, 0x00, 0x00, 0x00,
  0x04, 0x00, 0x00, 0x00, 0x32, 0xff, 0xff, 0xff, 0x14, 0x00, 0x00, 0x00,
  0x00, 0x00, 0x00, 0x01, 0x1c, 0x00, 0x00, 0x00, 0x20, 0x00, 0x00, 0x00,
  0x01, 0x00, 0x00, 0x00, 0x24, 0xff, 0xff, 0xff, 0x00, 0x00, 0x00, 0x01,
  0x01, 0x00, 0x00, 0x00, 0x01, 0x00, 0x00, 0x00, 0x01, 0x00, 0x00, 0x00,
  0x11, 0x00, 0x00, 0x00, 0x03, 0x00, 0x00, 0x00, 0x10, 0x00, 0x00, 0x00,
  0x08, 0x00, 0x00, 0x00, 0x09, 0x00, 0x00, 0x00, 0x16, 0xff, 0xff, 0xff,
  0x08, 0x00, 0x00, 0x00, 0x0c, 0x00, 0x00, 0x00, 0x01, 0x00, 0x00, 0x00,
  0x10, 0x00, 0x00, 0x00, 0x02, 0x00, 0x00, 0x00, 0x0f, 0x00, 0x00, 0x00,
  0x03, 0x00, 0x00, 0x00, 0x92, 0xff, 0xff, 0xff, 0x24, 0x00, 0x00, 0x00,
  0x00, 0x00, 0x00, 0x05, 0x30, 0x00, 0x00, 0x00, 0x34, 0x00, 0x00, 0x00,
  0x02, 0x00, 0x00, 0x00, 0x00, 0x00, 0x0e, 0x00, 0x14, 0x00, 0x00, 0x00,
  0x10, 0x00, 0x0c, 0x00, 0x08, 0x00, 0x04, 0x00, 0x0e, 0x00, 0x00, 0x00,
  0x02, 0x00, 0x00, 0x00, 0x01, 0x00, 0x00, 0x00, 0x02, 0x00, 0x00, 0x00,
  0x01, 0x00, 0x00, 0x00, 0x01, 0x00, 0x00, 0x00, 0x0f, 0x00, 0x00, 0x00,
  0x01, 0x00, 0x00, 0x00, 0x0e, 0x00, 0x00, 0x00, 0x82, 0xff, 0xff, 0xff,
  0x08, 0x00, 0x00, 0x00, 0x0c, 0x00, 0x00, 0x00, 0x01, 0x00, 0x00, 0x00,
  0x0e, 0x00, 0x00, 0x00, 0x02, 0x00, 0x00, 0x00, 0x0d, 0x00, 0x00, 0x00,
  0x02, 0x00, 0x00, 0x00, 0x00, 0x00, 0x0e, 0x00, 0x18, 0x00, 0x14, 0x00,
  0x10, 0x00, 0x0c, 0x00, 0x0b, 0x00, 0x04, 0x00, 0x0e, 0x00, 0x00, 0x00,
  0x20, 0x00, 0x00, 0x00, 0x00, 0x00, 0x00, 0x01, 0x28, 0x00, 0x00, 0x00,
  0x2c, 0x00, 0x00, 0x00, 0x01, 0x00, 0x00, 0x00, 0x0c, 0x00, 0x10, 0x00,
  0x00, 0x00, 0x0c, 0x00, 0x08, 0x00, 0x07, 0x00, 0x0c, 0x00, 0x00, 0x00,
  0x00, 0x00, 0x00, 0x01, 0x01, 0x00, 0x00, 0x00, 0x01, 0x00, 0x00, 0x00,
  0x01, 0x00, 0x00, 0x00, 0x0d, 0x00, 0x00, 0x00, 0x03, 0x00, 0x00, 0x00,
  0x0c, 0x00, 0x00, 0x00, 0x06, 0x00, 0x00, 0x00, 0x07, 0x00, 0x00, 0x00,
  0x00, 0x00, 0x0a, 0x00, 0x0c, 0x00, 0x00, 0x00, 0x08, 0x00, 0x04, 0x00,
  0x0a, 0x00, 0x00, 0x00, 0x08, 0x00, 0x00, 0x00, 0x0c, 0x00, 0x00, 0x00,
  0x01, 0x00, 0x00, 0x00, 0x0c, 0x00, 0x00, 0x00, 0x02, 0x00, 0x00, 0x00,
  0x00, 0x00, 0x00, 0x00, 0x01, 0x00, 0x00, 0x00, 0x01, 0x00, 0x00, 0x00,
  0x16, 0x00, 0x00, 0x00, 0x01, 0x00, 0x00, 0x00, 0x00, 0x00, 0x00, 0x00,
  0x17, 0x00, 0x00, 0x00, 0xf8, 0x0b, 0x00, 0x00, 0x94, 0x0b, 0x00, 0x00,
  0x44, 0x0b, 0x00, 0x00, 0xf0, 0x0a, 0x00, 0x00, 0x9c, 0x0a, 0x00, 0x00,
  0x54, 0x0a, 0x00, 0x00, 0x8c, 0x09, 0x00, 0x00, 0xe0, 0x08, 0x00, 0x00,
  0xbc, 0x07, 0x00, 0x00, 0xb0, 0x06, 0x00, 0x00, 0x44, 0x06, 0x00, 0x00,
  0xf0, 0x05, 0x00, 0x00, 0x74, 0x05, 0x00, 0x00, 0xa8, 0x04, 0x00, 0x00,
  0x2c, 0x04, 0x00, 0x00, 0xb0, 0x03, 0x00, 0x00, 0x34, 0x03, 0x00, 0x00,
  0x58, 0x02, 0x00, 0x00, 0xdc, 0x01, 0x00, 0x00, 0x60, 0x01, 0x00, 0x00,
  0xf4, 0x00, 0x00, 0x00, 0x70, 0x00, 0x00, 0x00, 0x04, 0x00, 0x00, 0x00,
  0x72, 0xf4, 0xff, 0xff, 0x14, 0x00, 0x00, 0x00, 0x34, 0x00, 0x00, 0x00,
  0x17, 0x00, 0x00, 0x00, 0x00, 0x00, 0x00, 0x09, 0x48, 0x00, 0x00, 0x00,
  0x64, 0xf4, 0xff, 0xff, 0x08, 0x00, 0x00, 0x00, 0x14, 0x00, 0x00, 0x00,
  0x01, 0x00, 0x00, 0x00, 0x80, 0xff, 0xff, 0xff, 0xff, 0xff, 0xff, 0xff,
  0x00, 0x00, 0x00, 0x00, 0x01, 0x00, 0x00, 0x00, 0x00, 0x00, 0x80, 0x3b,
  0x19, 0x00, 0x00, 0x00, 0x53, 0x74, 0x61, 0x74, 0x65, 0x66, 0x75, 0x6c,
  0x50, 0x61, 0x72, 0x74, 0x69, 0x74, 0x69, 0x6f, 0x6e, 0x65, 0x64, 0x43,
  0x61, 0x6c, 0x6c, 0x3a, 0x30, 0x00, 0x00, 0x00, 0x02, 0x00, 0x00, 0x00,
  0x01, 0x00, 0x00, 0x00, 0x04, 0x00, 0x00, 0x00, 0xda, 0xf4, 0xff, 0xff,
  0x14, 0x00, 0x00, 0x00, 0x34, 0x00, 0x00, 0x00, 0x16, 0x00, 0x00, 0x00,
  0x00, 0x00, 0x00, 0x09, 0x60, 0x00, 0x00, 0x00, 0xcc, 0xf4, 0xff, 0xff,
  0x08, 0x00, 0x00, 0x00, 0x14, 0x00, 0x00, 0x00, 0x01, 0x00, 0x00, 0x00,
  0x0e, 0x00, 0x00, 0x00, 0x00, 0x00, 0x00, 0x00, 0x00, 0x00, 0x00, 0x00,
  0x01, 0x00, 0x00, 0x00, 0xf5, 0xb6, 0x9a, 0x3d, 0x32, 0x00, 0x00, 0x00,
  0x73, 0x65, 0x71, 0x75, 0x65, 0x6e, 0x74, 0x69, 0x61, 0x6c, 0x2f, 0x79,
  0x5f, 0x70, 0x72, 0x65, 0x64, 0x2f, 0x4d, 0x61, 0x74, 0x4d, 0x75, 0x6c,
  0x3b, 0x73, 0x65, 0x71, 0x75, 0x65, 0x6e, 0x74, 0x69, 0x61, 0x6c, 0x2f,
  0x79, 0x5f, 0x70, 0x72, 0x65, 0x64, 0x2f, 0x42, 0x69, 0x61, 0x73, 0x41,
  0x64, 0x64, 0x00, 0x00, 0x02, 0x00, 0x00, 0x00, 0x01, 0x00, 0x00, 0x00,
  0x04, 0x00, 0x00, 0x00, 0x5a, 0xf5, 0xff, 0xff, 0x14, 0x00, 0x00, 0x00,
  0x34, 0x00, 0x00, 0x00, 0x15, 0x00, 0x00, 0x00, 0x00, 0x00, 0x00, 0x09,
  0x48, 0x00, 0x00, 0x00, 0x4c, 0xf5, 0xff, 0xff, 0x08, 0x00, 0x00, 0x00,
  0x14, 0x00, 0x00, 0x00, 0x01, 0x00, 0x00, 0x00, 0x80, 0xff, 0xff, 0xff,
  0xff, 0xff, 0xff, 0xff, 0x00, 0x00, 0x00, 0x00, 0x01, 0x00, 0x00, 0x00,
  0xda, 0xfa, 0xa4, 0x3c, 0x1a, 0x00, 0x00, 0x00, 0x73, 0x65, 0x71, 0x75,
  0x65, 0x6e, 0x74, 0x69, 0x61, 0x6c, 0x2f, 0x66, 0x6c, 0x61, 0x74, 0x74,
  0x65, 0x6e, 0x2f, 0x52, 0x65, 0x73, 0x68, 0x61, 0x70, 0x65, 0x00, 0x00,
  0x02, 0x00, 0x00, 0x00, 0x01, 0x00, 0x00, 0x00, 0xd0, 0x00, 0x00, 0x00,
  0xc2, 0xf5, 0xff, 0xff, 0x14, 0x00, 0x00, 0x00, 0x34, 0x00, 0x00, 0x00,
  0x14, 0x00, 0x00, 0x00, 0x00, 0x00, 0x00, 0x09, 0x50, 0x00, 0x00, 0x00,
  0xb4, 0xf5, 0xff, 0xff, 0x08, 0x00, 0x00, 0x00, 0x14, 0x00, 0x00, 0x00,
  0x01, 0x00, 0x00, 0x00, 0x80, 0xff, 0xff, 0xff, 0xff, 0xff, 0xff, 0xff,
  0x00, 0x00, 0x00, 0x00, 0x01, 0x00, 0x00, 0x00, 0xda, 0xfa, 0xa4, 0x3c,
  0x22, 0x00, 0x00, 0x00, 0x73, 0x65, 0x71, 0x75, 0x65, 0x6e, 0x74, 0x69,
  0x61, 0x6c, 0x2f, 0x6d, 0x61, 0x78, 0x5f, 0x70, 0x6f, 0x6f, 0x6c, 0x69,
  0x6e, 0x67, 0x31, 0x64, 0x5f, 0x31, 0x2f, 0x4d, 0x61, 0x78, 0x50, 0x6f,
  0x6f, 0x6c, 0x00, 0x00, 0x04, 0x00, 0x00, 0x00, 0x01, 0x00, 0x00, 0x00,
  0x0d, 0x00, 0x00, 0x00, 0x01, 0x00, 0x00, 0x00, 0x10, 0x00, 0x00, 0x00,
  0x3a, 0xf6, 0xff, 0xff, 0x14, 0x00, 0x00, 0x00, 0x30, 0x00, 0x00, 0x00,
  0x13, 0x00, 0x00, 0x00, 0x00, 0x00, 0x00, 0x09, 0x50, 0x00, 0x00, 0x00,
  0x2c, 0xf6, 0xff, 0xff, 0x08, 0x00, 0x00, 0x00, 0x10, 0x00, 0x00, 0x00,
  0x01, 0x00, 0x00, 0x00, 0x80, 0xff, 0xff, 0xff, 0xff, 0xff, 0xff, 0xff,
  0x01, 0x00, 0x00, 0x00, 0xda, 0xfa, 0xa4, 0x3c, 0x26, 0x00, 0x00, 0x00,
  0x73, 0x65, 0x71, 0x75, 0x65, 0x6e, 0x74, 0x69, 0x61, 0x6c, 0x2f, 0x6d,
  0x61, 0x78, 0x5f, 0x70, 0x6f, 0x6f, 0x6c, 0x69, 0x6e, 0x67, 0x31, 0x64,
  0x5f, 0x31, 0x2f, 0x45, 0x78, 0x70, 0x61, 0x6e, 0x64, 0x44, 0x69, 0x6d,
  0x73, 0x31, 0x00, 0x00, 0x04, 0x00, 0x00, 0x00, 0x01, 0x00, 0x00, 0x00,
  0x19, 0x00, 0x00, 0x00, 0x01, 0x00, 0x00, 0x00, 0x10, 0x00, 0x00, 0x00,
  0xb2, 0xf6, 0xff, 0xff, 0x14, 0x00, 0x00, 0x00, 0x34, 0x00, 0x00, 0x00,
  0x12, 0x00, 0x00, 0x00, 0x00, 0x00, 0x00, 0x09, 0xb0, 0x00, 0x00, 0x00,
  0xa4, 0xf6, 0xff, 0xff, 0x08, 0x00, 0x00, 0x00, 0x14, 0x00, 0x00, 0x00,
  0x01, 0x00, 0x00, 0x00, 0x80, 0xff, 0xff, 0xff, 0xff, 0xff, 0xff, 0xff,
  0x00, 0x00, 0x00, 0x00, 0x01, 0x00, 0x00, 0x00, 0xda, 0xfa, 0xa4, 0x3c,
  0x80, 0x00, 0x00, 0x00, 0x73, 0x65, 0x71, 0x75, 0x65, 0x6e, 0x74, 0x69,
  0x61, 0x6c, 0x2f, 0x63, 0x6f, 0x6e, 0x76, 0x31, 0x64, 0x5f, 0x31, 0x2f,
  0x52, 0x65, 0x6c, 0x75, 0x3b, 0x73, 0x65, 0x71, 0x75, 0x65, 0x6e, 0x74,
  0x69, 0x61, 0x6c, 0x2f, 0x63, 0x6f, 0x6e, 0x76, 0x31, 0x64, 0x5f, 0x31,
  0x2f, 0x42, 0x69, 0x61, 0x73, 0x41, 0x64, 0x64, 0x3b, 0x73, 0x65, 0x71,
  0x75, 0x65, 0x6e, 0x74, 0x69, 0x61, 0x6c, 0x2f, 0x63, 0x6f, 0x6e, 0x76,
  0x31, 0x64, 0x5f, 0x31, 0x2f, 0x43, 0x6f, 0x6e, 0x76, 0x31, 0x44, 0x2f,
  0x53, 0x71, 0x75, 0x65, 0x65, 0x7a, 0x65, 0x3b, 0x63, 0x6f, 0x6e, 0x76,
  0x31, 0x64, 0x5f, 0x31, 0x2f, 0x62, 0x69, 0x61, 0x73, 0x3b, 0x73, 0x65,
  0x71, 0x75, 0x65, 0x6e, 0x74, 0x69, 0x61, 0x6c, 0x2f, 0x63, 0x6f, 0x6e,
  0x76, 0x31, 0x64, 0x5f, 0x31, 0x2f, 0x43, 0x6f, 0x6e, 0x76, 0x31, 0x44,
  0x00, 0x00, 0x00, 0x00, 0x04, 0x00, 0x00, 0x00, 0x01, 0x00, 0x00, 0x00,
  0x01, 0x00, 0x00, 0x00, 0x19, 0x00, 0x00, 0x00, 0x10, 0x00, 0x00, 0x00,
  0x8a, 0xf7, 0xff, 0xff, 0x14, 0x00, 0x00, 0x00, 0x30, 0x00, 0x00, 0x00,
  0x11, 0x00, 0x00, 0x00, 0x00, 0x00, 0x00, 0x09, 0x50, 0x00, 0x00, 0x00,
  0x7c, 0xf7, 0xff, 0xff, 0x08, 0x00, 0x00, 0x00, 0x10, 0x00, 0x00, 0x00,
  0x01, 0x00, 0x00, 0x00, 0x80, 0xff, 0xff, 0xff, 0xff, 0xff, 0xff, 0xff,
  0x01, 0x00, 0x00, 0x00, 0x6f, 0xb2, 0x2a, 0x3d, 0x26, 0x00, 0x00, 0x00,
  0x73, 0x65, 0x71, 0x75, 0x65, 0x6e, 0x74, 0x69, 0x61, 0x6c, 0x2f, 0x63,
  0x6f, 0x6e, 0x76, 0x31, 0x64, 0x5f, 0x31, 0x2f, 0x43, 0x6f, 0x6e, 0x76,
  0x31, 0x44, 0x2f, 0x45, 0x78, 0x70, 0x61, 0x6e, 0x64, 0x44, 0x69, 0x6d,
  0x73, 0x31, 0x00, 0x00, 0x04, 0x00, 0x00, 0x00, 0x01, 0x00, 0x00, 0x00,
  0x01, 0x00, 0x00, 0x00, 0x19, 0x00, 0x00, 0x00, 0x08, 0x00, 0x00, 0x00,
  0x02, 0xf8, 0xff, 0xff, 0x14, 0x00, 0x00, 0x00, 0x34, 0x00, 0x00, 0x00,
  0x10, 0x00, 0x00, 0x00, 0x00, 0x00, 0x00, 0x09, 0x50, 0x00, 0x00, 0x00,
  0xf4, 0xf7, 0xff, 0xff, 0x08, 0x00, 0x00, 0x00, 0x14, 0x00, 0x00, 0x00,
  0x01, 0x00, 0x00, 0x00, 0x80, 0xff, 0xff, 0xff, 0xff, 0xff, 0xff, 0xff,
  0x00, 0x00, 0x00, 0x00, 0x01, 0x00, 0x00, 0x00, 0x6f, 0xb2, 0x2a, 0x3d,
  0x20, 0x00, 0x00, 0x00, 0x73, 0x65, 0x71, 0x75, 0x65, 0x6e, 0x74, 0x69,
  0x61, 0x6c, 0x2f, 0x6d, 0x61, 0x78, 0x5f, 0x70, 0x6f, 0x6f, 0x6c, 0x69,
  0x6e, 0x67, 0x31, 0x64, 0x2f, 0x4d, 0x61, 0x78, 0x50, 0x6f, 0x6f, 0x6c,
  0x00, 0x00, 0x00, 0x00, 0x04, 0x00, 0x00, 0x00, 0x01, 0x00, 0x00, 0x00,
  0x19, 0x00, 0x00, 0x00, 0x01, 0x00, 0x00, 0x00, 0x08, 0x00, 0x00, 0x00,
  0x7a, 0xf8, 0xff, 0xff, 0x14, 0x00, 0x00, 0x00, 0x30, 0x00, 0x00, 0x00,
  0x0f, 0x00, 0x00, 0x00, 0x00, 0x00, 0x00, 0x09, 0x50, 0x00, 0x00, 0x00,
  0x6c, 0xf8, 0xff, 0xff, 0x08, 0x00, 0x00, 0x00, 0x10, 0x00, 0x00, 0x00,
  0x01, 0x00, 0x00, 0x00, 0x80, 0xff, 0xff, 0xff, 0xff, 0xff, 0xff, 0xff,
  0x01, 0x00, 0x00, 0x00, 0x6f, 0xb2, 0x2a, 0x3d, 0x24, 0x00, 0x00, 0x00,
  0x73, 0x65, 0x71, 0x75, 0x65, 0x6e, 0x74, 0x69, 0x61, 0x6c, 0x2f, 0x6d,
  0x61, 0x78, 0x5f, 0x70, 0x6f, 0x6f, 0x6c, 0x69, 0x6e, 0x67, 0x31, 0x64,
  0x2f, 0x45, 0x78, 0x70, 0x61, 0x6e, 0x64, 0x44, 0x69, 0x6d, 0x73, 0x31,
  0x00, 0x00, 0x00, 0x00, 0x04, 0x00, 0x00, 0x00, 0x01, 0x00, 0x00, 0x00,
  0x32, 0x00, 0x00, 0x00, 0x01, 0x00, 0x00, 0x00, 0x08, 0x00, 0x00, 0x00,
  0xf2, 0xf8, 0xff, 0xff, 0x14, 0x00, 0x00, 0x00, 0x30, 0x00, 0x00, 0x00,
  0x0e, 0x00, 0x00, 0x00, 0x00, 0x00, 0x00, 0x09, 0xa0, 0x00, 0x00, 0x00,
  0xe4, 0xf8, 0xff, 0xff, 0x08, 0x00, 0x00, 0x00, 0x10, 0x00, 0x00, 0x00,
  0x01, 0x00, 0x00, 0x00, 0x80, 0xff, 0xff, 0xff, 0xff, 0xff, 0xff, 0xff,
  0x01, 0x00, 0x00, 0x00, 0x6f, 0xb2, 0x2a, 0x3d, 0x76, 0x00, 0x00, 0x00,
  0x73, 0x65, 0x71, 0x75, 0x65, 0x6e, 0x74, 0x69, 0x61, 0x6c, 0x2f, 0x63,
  0x6f, 0x6e, 0x76, 0x31, 0x64, 0x2f, 0x52, 0x65, 0x6c, 0x75, 0x3b, 0x73,
  0x65, 0x71, 0x75, 0x65, 0x6e, 0x74, 0x69, 0x61, 0x6c, 0x2f, 0x63, 0x6f,
  0x6e, 0x76, 0x31, 0x64, 0x2f, 0x42, 0x69, 0x61, 0x73, 0x41, 0x64, 0x64,
  0x3b, 0x73, 0x65, 0x71, 0x75, 0x65, 0x6e, 0x74, 0x69, 0x61, 0x6c, 0x2f,
  0x63, 0x6f, 0x6e, 0x76, 0x31, 0x64, 0x2f, 0x43, 0x6f, 0x6e, 0x76, 0x31,
  0x44, 0x2f, 0x53, 0x71, 0x75, 0x65, 0x65, 0x7a, 0x65, 0x3b, 0x63, 0x6f,
  0x6e, 0x76, 0x31, 0x64, 0x2f, 0x62, 0x69, 0x61, 0x73, 0x3b, 0x73, 0x65,
  0x71, 0x75, 0x65, 0x6e, 0x74, 0x69, 0x61, 0x6c, 0x2f, 0x63, 0x6f, 0x6e,
  0x76, 0x31, 0x64, 0x2f, 0x43, 0x6f, 0x6e, 0x76, 0x31, 0x44, 0x00, 0x00,
  0x04, 0x00, 0x00, 0x00, 0x01, 0x00, 0x00, 0x00, 0x01, 0x00, 0x00, 0x00,
  0x32, 0x00, 0x00, 0x00, 0x08, 0x00, 0x00, 0x00, 0xba, 0xf9, 0xff, 0xff,
  0x14, 0x00, 0x00, 0x00, 0x30, 0x00, 0x00, 0x00, 0x0d, 0x00, 0x00, 0x00,
  0x00, 0x00, 0x00, 0x09, 0x50, 0x00, 0x00, 0x00, 0xac, 0xf9, 0xff, 0xff,
  0x08, 0x00, 0x00, 0x00, 0x10, 0x00, 0x00, 0x00, 0x01, 0x00, 0x00, 0x00,
  0xf1, 0xff, 0xff, 0xff, 0xff, 0xff, 0xff, 0xff, 0x01, 0x00, 0x00, 0x00,
  0x8d, 0x06, 0x38, 0x3d, 0x24, 0x00, 0x00, 0x00, 0x73, 0x65, 0x71, 0x75,
  0x65, 0x6e, 0x74, 0x69, 0x61, 0x6c, 0x2f, 0x63, 0x6f, 0x6e, 0x76, 0x31,
  0x64, 0x2f, 0x43, 0x6f, 0x6e, 0x76, 0x31, 0x44, 0x2f, 0x45, 0x78, 0x70,
  0x61, 0x6e, 0x64, 0x44, 0x69, 0x6d, 0x73, 0x31, 0x00, 0x00, 0x00, 0x00,
  0x04, 0x00, 0x00, 0x00, 0x01, 0x00, 0x00, 0x00, 0x01, 0x00, 0x00, 0x00,
  0x32, 0x00, 0x00, 0x00, 0x0d, 0x00, 0x00, 0x00, 0x32, 0xfa, 0xff, 0xff,
  0x14, 0x00, 0x00, 0x00, 0x30, 0x00, 0x00, 0x00, 0x0c, 0x00, 0x00, 0x00,
  0x00, 0x00, 0x00, 0x02, 0x34, 0x00, 0x00, 0x00, 0x24, 0xfa, 0xff, 0xff,
  0x08, 0x00, 0x00, 0x00, 0x10, 0x00, 0x00, 0x00, 0x01, 0x00, 0x00, 0x00,
  0x00, 0x00, 0x00, 0x00, 0x00, 0x00, 0x00, 0x00, 0x01, 0x00, 0x00, 0x00,
  0x8c, 0xd8, 0x2f, 0x39, 0x0b, 0x00, 0x00, 0x00, 0x79, 0x5f, 0x70, 0x72,
  0x65, 0x64, 0x2f, 0x62, 0x69, 0x61, 0x73, 0x00, 0x01, 0x00, 0x00, 0x00,
  0x04, 0x00, 0x00, 0x00, 0x82, 0xfa, 0xff, 0xff, 0x14, 0x00, 0x00, 0x00,
  0x34, 0x00, 0x00, 0x00, 0x0b, 0x00, 0x00, 0x00, 0x00, 0x00, 0x00, 0x09,
  0x48, 0x00, 0x00, 0x00, 0x74, 0xfa, 0xff, 0xff, 0x08, 0x00, 0x00, 0x00,
  0x14, 0x00, 0x00, 0x00, 0x01, 0x00, 0x00, 0x00, 0x00, 0x00, 0x00, 0x00,
  0x00, 0x00, 0x00, 0x00, 0x00, 0x00, 0x00, 0x00, 0x01, 0x00, 0x00, 0x00,
  0x2f, 0x6e, 0x08, 0x3c, 0x18, 0x00, 0x00, 0x00, 0x73, 0x65, 0x71, 0x75,
  0x65, 0x6e, 0x74, 0x69, 0x61, 0x6c, 0x2f, 0x79, 0x5f, 0x70, 0x72, 0x65,
  0x64, 0x2f, 0x4d, 0x61, 0x74, 0x4d, 0x75, 0x6c, 0x00, 0x00, 0x00, 0x00,
  0x02, 0x00, 0x00, 0x00, 0x04, 0x00, 0x00, 0x00, 0xd0, 0x00, 0x00, 0x00,
  0xea, 0xfa, 0xff, 0xff, 0x14, 0x00, 0x00, 0x00, 0xe4, 0x00, 0x00, 0x00,
  0x0a, 0x00, 0x00, 0x00, 0x00, 0x00, 0x00, 0x02, 0xec, 0x00, 0x00, 0x00,
  0xdc, 0xfa, 0xff, 0xff, 0x08, 0x00, 0x00, 0x00, 0x88, 0x00, 0x00, 0x00,
  0x10, 0x00, 0x00, 0x00, 0x00, 0x00, 0x00, 0x00, 0x00, 0x00, 0x00, 0x00,
  0x00, 0x00, 0x00, 0x00, 0x00, 0x00, 0x00, 0x00, 0x00, 0x00, 0x00, 0x00,
  0x00, 0x00, 0x00, 0x00, 0x00, 0x00, 0x00, 0x00, 0x00, 0x00, 0x00, 0x00,
  0x00, 0x00, 0x00, 0x00, 0x00, 0x00, 0x00, 0x00, 0x00, 0x00, 0x00, 0x00,
  0x00, 0x00, 0x00, 0x00, 0x00, 0x00, 0x00, 0x00, 0x00, 0x00, 0x00, 0x00,
  0x00, 0x00, 0x00, 0x00, 0x00, 0x00, 0x00, 0x00, 0x00, 0x00, 0x00, 0x00,
  0x00, 0x00, 0x00, 0x00, 0x00, 0x00, 0x00, 0x00, 0x00, 0x00, 0x00, 0x00,
  0x00, 0x00, 0x00, 0x00, 0x00, 0x00, 0x00, 0x00, 0x00, 0x00, 0x00, 0x00,
  0x00, 0x00, 0x00, 0x00, 0x00, 0x00, 0x00, 0x00, 0x00, 0x00, 0x00, 0x00,
  0x00, 0x00, 0x00, 0x00, 0x00, 0x00, 0x00, 0x00, 0x00, 0x00, 0x00, 0x00,
  0x00, 0x00, 0x00, 0x00, 0x00, 0x00, 0x00, 0x00, 0x00, 0x00, 0x00, 0x00,
  0x10, 0x00, 0x00, 0x00, 0x94, 0x22, 0xa1, 0x39, 0xf4, 0xbe, 0xd5, 0x39,
  0x5f, 0x0b, 0x0b, 0x3a, 0x9b, 0xf5, 0x8e, 0x39, 0x12, 0x2a, 0xca, 0x39,
  0x16, 0xc0, 0x94, 0x39, 0xe0, 0xd7, 0xc2, 0x39, 0x78, 0x43, 0x59, 0x3a,
  0x3d, 0xa8, 0x40, 0x39, 0x58, 0xe0, 0x3f, 0x3a, 0xdc, 0xf6, 0x5d, 0x39,
  0x83, 0x9c, 0x43, 0x39, 0x25, 0x0b, 0x8a, 0x39, 0xb6, 0xb2, 0x50, 0x39,
  0xe5, 0x1b, 0xb2, 0x39, 0x30, 0x92, 0xae, 0x39, 0x0d, 0x00, 0x00, 0x00,
  0x63, 0x6f, 0x6e, 0x76, 0x31, 0x64, 0x5f, 0x31, 0x2f, 0x62, 0x69, 0x61,
  0x73, 0x00, 0x00, 0x00, 0x01, 0x00, 0x00, 0x00, 0x10, 0x00, 0x00, 0x00,
  0xf2, 0xfb, 0xff, 0xff, 0x14, 0x00, 0x00, 0x00, 0xe4, 0x00, 0x00, 0x00,
  0x09, 0x00, 0x00, 0x00, 0x00, 0x00, 0x00, 0x09, 0xf8, 0x00, 0x00, 0x00,
  0xe4, 0xfb, 0xff, 0xff, 0x08, 0x00, 0x00, 0x00, 0x88, 0x00, 0x00, 0x00,
  0x10, 0x00, 0x00, 0x00, 0x00, 0x00, 0x00, 0x00, 0x00, 0x00, 0x00, 0x00,
  0x00, 0x00, 0x00, 0x00, 0x00, 0x00, 0x00, 0x00, 0x00, 0x00, 0x00, 0x00,
  0x00, 0x00, 0x00, 0x00, 0x00, 0x00, 0x00, 0x00, 0x00, 0x00, 0x00, 0x00,
  0x00, 0x00, 0x00, 0x00, 0x00, 0x00, 0x00, 0x00, 0x00, 0x00, 0x00, 0x00,
  0x00, 0x00, 0x00, 0x00, 0x00, 0x00, 0x00, 0x00, 0x00, 0x00, 0x00, 0x00,
  0x00, 0x00, 0x00, 0x00, 0x00, 0x00, 0x00, 0x00, 0x00, 0x00, 0x00, 0x00,
  0x00, 0x00, 0x00, 0x00, 0x00, 0x00, 0x00, 0x00, 0x00, 0x00, 0x00, 0x00,
  0x00, 0x00, 0x00, 0x00, 0x00, 0x00, 0x00, 0x00, 0x00, 0x00, 0x00, 0x00,
  0x00, 0x00, 0x00, 0x00, 0x00, 0x00, 0x00, 0x00, 0x00, 0x00, 0x00, 0x00,
  0x00, 0x00, 0x00, 0x00, 0x00, 0x00, 0x00, 0x00, 0x00, 0x00, 0x00, 0x00,
  0x00, 0x00, 0x00, 0x00, 0x00, 0x00, 0x00, 0x00, 0x00, 0x00, 0x00, 0x00,
  0x10, 0x00, 0x00, 0x00, 0xde, 0xa8, 0xf1, 0x3b, 0xec, 0x47, 0x20, 0x3c,
  0x91, 0x87, 0x50, 0x3c, 0xa6, 0x66, 0xd6, 0x3b, 0xa7, 0x98, 0x17, 0x3c,
  0xfa, 0x15, 0xdf, 0x3b, 0x42, 0x1b, 0x12, 0x3c, 0x30, 0xeb, 0xa2, 0x3c,
  0x9b, 0x77, 0x90, 0x3b, 0xb6, 0xe1, 0x8f, 0x3c, 0x92, 0x71, 0xa6, 0x3b,
  0xb5, 0xae, 0x92, 0x3b, 0x4c, 0x07, 0xcf, 0x3b, 0xe9, 0x7e, 0x9c, 0x3b,
  0xd8, 0x8e, 0x05, 0x3c, 0xaf, 0xe7, 0x02, 0x3c, 0x1a, 0x00, 0x00, 0x00,
  0x73, 0x65, 0x71, 0x75, 0x65, 0x6e, 0x74, 0x69, 0x61, 0x6c, 0x2f, 0x63,
  0x6f, 0x6e, 0x76, 0x31, 0x64, 0x5f, 0x31, 0x2f, 0x43, 0x6f, 0x6e, 0x76,
  0x31, 0x44, 0x00, 0x00, 0x04, 0x00, 0x00, 0x00, 0x10, 0x00, 0x00, 0x00,
  0x01, 0x00, 0x00, 0x00, 0x03, 0x00, 0x00, 0x00, 0x08, 0x00, 0x00, 0x00,
  0x12, 0xfd, 0xff, 0xff, 0x14, 0x00, 0x00, 0x00, 0x88, 0x00, 0x00, 0x00,
  0x08, 0x00, 0x00, 0x00, 0x00, 0x00, 0x00, 0x02, 0x8c, 0x00, 0x00, 0x00,
  0x04, 0xfd, 0xff, 0xff, 0x08, 0x00, 0x00, 0x00, 0x4c, 0x00, 0x00, 0x00,
  0x08, 0x00, 0x00, 0x00, 0x00, 0x00, 0x00, 0x00, 0x00, 0x00, 0x00, 0x00,
  0x00, 0x00, 0x00, 0x00, 0x00, 0x00, 0x00, 0x00, 0x00, 0x00, 0x00, 0x00,
  0x00, 0x00, 0x00, 0x00, 0x00, 0x00, 0x00, 0x00, 0x00, 0x00, 0x00, 0x00,
  0x00, 0x00, 0x00, 0x00, 0x00, 0x00, 0x00, 0x00, 0x00, 0x00, 0x00, 0x00,
  0x00, 0x00, 0x00, 0x00, 0x00, 0x00, 0x00, 0x00, 0x00, 0x00, 0x00, 0x00,
  0x00, 0x00, 0x00, 0x00, 0x00, 0x00, 0x00, 0x00, 0x00, 0x00, 0x00, 0x00,
  0x08, 0x00, 0x00, 0x00, 0x0f, 0x86, 0xf1, 0x39, 0xba, 0xea, 0x1a, 0x39,
  0xd5, 0xed, 0x6d, 0x39, 0x42, 0x58, 0x32, 0x3a, 0xb4, 0x6e, 0x48, 0x39,
  0xca, 0x2b, 0x8c, 0x39, 0xe3, 0xcf, 0x7f, 0x39, 0xe5, 0xfc, 0x7d, 0x39,
  0x0b, 0x00, 0x00, 0x00, 0x63, 0x6f, 0x6e, 0x76, 0x31, 0x64, 0x2f, 0x62,
  0x69, 0x61, 0x73, 0x00, 0x01, 0x00, 0x00, 0x00, 0x08, 0x00, 0x00, 0x00,
  0xba, 0xfd, 0xff, 0xff, 0x14, 0x00, 0x00, 0x00, 0x88, 0x00, 0x00, 0x00,
  0x07, 0x00, 0x00, 0x00, 0x00, 0x00, 0x00, 0x09, 0x9c, 0x00, 0x00, 0x00,
  0xac, 0xfd, 0xff, 0xff, 0x08, 0x00, 0x00, 0x00, 0x4c, 0x00, 0x00, 0x00,
  0x08, 0x00, 0x00, 0x00, 0x00, 0x00, 0x00, 0x00, 0x00, 0x00, 0x00, 0x00,
  0x00, 0x00, 0x00, 0x00, 0x00, 0x00, 0x00, 0x00, 0x00, 0x00, 0x00, 0x00,
  0x00, 0x00, 0x00, 0x00, 0x00, 0x00, 0x00, 0x00, 0x00, 0x00, 0x00, 0x00,
  0x00, 0x00, 0x00, 0x00, 0x00, 0x00, 0x00, 0x00, 0x00, 0x00, 0x00, 0x00,
  0x00, 0x00, 0x00, 0x00, 0x00, 0x00, 0x00, 0x00, 0x00, 0x00, 0x00, 0x00,
  0x00, 0x00, 0x00, 0x00, 0x00, 0x00, 0x00, 0x00, 0x00, 0x00, 0x00, 0x00,
  0x08, 0x00, 0x00, 0x00, 0x3c, 0xfe, 0x27, 0x3c, 0xb0, 0x81, 0x57, 0x3b,
  0x2a, 0x7e, 0xa5, 0x3b, 0xeb, 0x18, 0x78, 0x3c, 0x70, 0x69, 0x8b, 0x3b,
  0x55, 0xfe, 0xc2, 0x3b, 0x75, 0xee, 0xb1, 0x3b, 0xa3, 0xa9, 0xb0, 0x3b,
  0x18, 0x00, 0x00, 0x00, 0x73, 0x65, 0x71, 0x75, 0x65, 0x6e, 0x74, 0x69,
  0x61, 0x6c, 0x2f, 0x63, 0x6f, 0x6e, 0x76, 0x31, 0x64, 0x2f, 0x43, 0x6f,
  0x6e, 0x76, 0x31, 0x44, 0x00, 0x00, 0x00, 0x00, 0x04, 0x00, 0x00, 0x00,
  0x08, 0x00, 0x00, 0x00, 0x01, 0x00, 0x00, 0x00, 0x03, 0x00, 0x00, 0x00,
  0x0d, 0x00, 0x00, 0x00, 0x7e, 0xfe, 0xff, 0xff, 0x14, 0x00, 0x00, 0x00,
  0x14, 0x00, 0x00, 0x00, 0x06, 0x00, 0x00, 0x00, 0x00, 0x00, 0x00, 0x02,
  0x28, 0x00, 0x00, 0x00, 0xd0, 0xfe, 0xff, 0xff, 0x18, 0x00, 0x00, 0x00,
  0x73, 0x65, 0x71, 0x75, 0x65, 0x6e, 0x74, 0x69, 0x61, 0x6c, 0x2f, 0x66,
  0x6c, 0x61, 0x74, 0x74, 0x65, 0x6e, 0x2f, 0x43, 0x6f, 0x6e, 0x73, 0x74,
  0x00, 0x00, 0x00, 0x00, 0x01, 0x00, 0x00, 0x00, 0x02, 0x00, 0x00, 0x00,
  0xc2, 0xfe, 0xff, 0xff, 0x14, 0x00, 0x00, 0x00, 0x14, 0x00, 0x00, 0x00,
  0x05, 0x00, 0x00, 0x00, 0x00, 0x00, 0x00, 0x02, 0x34, 0x00, 0x00, 0x00,
  0x14, 0xff, 0xff, 0xff, 0x25, 0x00, 0x00, 0x00, 0x73, 0x65, 0x71, 0x75,
  0x65, 0x6e, 0x74, 0x69, 0x61, 0x6c, 0x2f, 0x6d, 0x61, 0x78, 0x5f, 0x70,
  0x6f, 0x6f, 0x6c, 0x69, 0x6e, 0x67, 0x31, 0x64, 0x5f, 0x31, 0x2f, 0x45,
  0x78, 0x70, 0x61, 0x6e, 0x64, 0x44, 0x69, 0x6d, 0x73, 0x00, 0x00, 0x00,
  0x01, 0x00, 0x00, 0x00, 0x04, 0x00, 0x00, 0x00, 0x12, 0xff, 0xff, 0xff,
  0x14, 0x00, 0x00, 0x00, 0x14, 0x00, 0x00, 0x00, 0x04, 0x00, 0x00, 0x00,
  0x00, 0x00, 0x00, 0x02, 0x34, 0x00, 0x00, 0x00, 0x64, 0xff, 0xff, 0xff,
  0x25, 0x00, 0x00, 0x00, 0x73, 0x65, 0x71, 0x75, 0x65, 0x6e, 0x74, 0x69,
  0x61, 0x6c, 0x2f, 0x63, 0x6f, 0x6e, 0x76, 0x31, 0x64, 0x5f, 0x31, 0x2f,
  0x43, 0x6f, 0x6e, 0x76, 0x31, 0x44, 0x2f, 0x45, 0x78, 0x70, 0x61, 0x6e,
  0x64, 0x44, 0x69, 0x6d, 0x73, 0x00, 0x00, 0x00, 0x01, 0x00, 0x00, 0x00,
  0x04, 0x00, 0x00, 0x00, 0x62, 0xff, 0xff, 0xff, 0x14, 0x00, 0x00, 0x00,
  0x14, 0x00, 0x00, 0x00, 0x03, 0x00, 0x00, 0x00, 0x00, 0x00, 0x00, 0x02,
  0x30, 0x00, 0x00, 0x00, 0xb4, 0xff, 0xff, 0xff, 0x23, 0x00, 0x00, 0x00,
  0x73, 0x65, 0x71, 0x75, 0x65, 0x6e, 0x74, 0x69, 0x61, 0x6c, 0x2f, 0x6d,
  0x61, 0x78, 0x5f, 0x70, 0x6f, 0x6f, 0x6c, 0x69, 0x6e, 0x67, 0x31, 0x64,
  0x2f, 0x45, 0x78, 0x70, 0x61, 0x6e, 0x64, 0x44, 0x69, 0x6d, 0x73, 0x00,
  0x01, 0x00, 0x00, 0x00, 0x04, 0x00, 0x00, 0x00, 0xae, 0xff, 0xff, 0xff,
  0x18, 0x00, 0x00, 0x00, 0x18, 0x00, 0x00, 0x00, 0x02, 0x00, 0x00, 0x00,
  0x00, 0x00, 0x00, 0x02, 0x34, 0x00, 0x00, 0x00, 0x04, 0x00, 0x04, 0x00,
  0x04, 0x00, 0x00, 0x00, 0x23, 0x00, 0x00, 0x00, 0x73, 0x65, 0x71, 0x75,
  0x65, 0x6e, 0x74, 0x69, 0x61, 0x6c, 0x2f, 0x63, 0x6f, 0x6e, 0x76, 0x31,
  0x64, 0x2f, 0x43, 0x6f, 0x6e, 0x76, 0x31, 0x44, 0x2f, 0x45, 0x78, 0x70,
  0x61, 0x6e, 0x64, 0x44, 0x69, 0x6d, 0x73, 0x00, 0x01, 0x00, 0x00, 0x00,
  0x04, 0x00, 0x00, 0x00, 0x00, 0x00, 0x0e, 0x00, 0x18, 0x00, 0x14, 0x00,
  0x13, 0x00, 0x0c, 0x00, 0x08, 0x00, 0x04, 0x00, 0x0e, 0x00, 0x00, 0x00,
  0x20, 0x00, 0x00, 0x00, 0x3c, 0x00, 0x00, 0x00, 0x01, 0x00, 0x00, 0x00,
  0x00, 0x00, 0x00, 0x09, 0x48, 0x00, 0x00, 0x00, 0x0c, 0x00, 0x0c, 0x00,
  0x00, 0x00, 0x00, 0x00, 0x08, 0x00, 0x04, 0x00, 0x0c, 0x00, 0x00, 0x00,
  0x08, 0x00, 0x00, 0x00, 0x10, 0x00, 0x00, 0x00, 0x01, 0x00, 0x00, 0x00,
  0xf1, 0xff, 0xff, 0xff, 0xff, 0xff, 0xff, 0xff, 0x01, 0x00, 0x00, 0x00,
  0x8d, 0x06, 0x38, 0x3d, 0x13, 0x00, 0x00, 0x00, 0x73, 0x65, 0x72, 0x76,
  0x69, 0x6e, 0x67, 0x5f, 0x64, 0x65, 0x66, 0x61, 0x75, 0x6c, 0x74, 0x5f,
  0x78, 0x3a, 0x30, 0x00, 0x02, 0x00, 0x00, 0x00, 0x01, 0x00, 0x00, 0x00,
  0x8a, 0x02, 0x00, 0x00, 0x05, 0x00, 0x00, 0x00, 0x6c, 0x00, 0x00, 0x00,
  0x4c, 0x00, 0x00, 0x00, 0x2c, 0x00, 0x00, 0x00, 0x18, 0x00, 0x00, 0x00,
  0x04, 0x00, 0x00, 0x00, 0xd0, 0xff, 0xff, 0xff, 0x19, 0x00, 0x00, 0x00,
  0x02, 0x00, 0x00, 0x00, 0x00, 0x00, 0x00, 0x19, 0xe0, 0xff, 0xff, 0xff,
  0x09, 0x00, 0x00, 0x00, 0x04, 0x00, 0x00, 0x00, 0x00, 0x00, 0x00, 0x09,
  0xf0, 0xff, 0xff, 0xff, 0x11, 0x00, 0x00, 0x00, 0x02, 0x00, 0x00, 0x00,
  0x00, 0x00, 0x00, 0x11, 0x0c, 0x00, 0x10, 0x00, 0x0f, 0x00, 0x00, 0x00,
  0x08, 0x00, 0x04, 0x00, 0x0c, 0x00, 0x00, 0x00, 0x03, 0x00, 0x00, 0x00,
  0x03, 0x00, 0x00, 0x00, 0x00, 0x00, 0x00, 0x03, 0x0c, 0x00, 0x0c, 0x00,
  0x0b, 0x00, 0x00, 0x00, 0x00, 0x00, 0x04, 0x00, 0x0c, 0x00, 0x00, 0x00,
  0x16, 0x00, 0x00, 0x00, 0x00, 0x00, 0x00, 0x16
};
unsigned int trained_tflite_len = 6272;

#endif // _EI_CLASSIFIER_TFLITE_TRAINED_H_

